. 46680
▁the 29532
, 23929
s 17942
▁a 14993
▁to 13686
▁of 13042
ed 11665
▁in 9972
▁was 9100
▁is 9007
' 8728
ing 8536
▁and 8307
y 7450
er 6260
▁I 6234
t 6077
? 5622
▁for 5569
▁it 5564
m 5438
e 5360
▁The 5328
▁that 5145
▁It 5023
▁s 5012
▁be 4971
al 4902
n 4897
es 4747
a 4704
▁m 4352
l 4318
or 4303
▁he 4291
▁f 4204
o 4197
en 4151
▁not 4131
i 4083
ar 4067
on 4060
▁p 4035
p 3996
b 3978
▁b 3904
g 3853
ly 3841
c 3789
▁c 3697
r 3677
re 3609
▁have 3588
u 3550
ent 3521
▁on 3497
▁with 3493
▁d 3350
in 3292
an 3260
le 3249
it 3195
▁A 3127
▁t 3113
▁l 3102
▁w 3052
ur 2957
at 2905
f 2897
ic 2876
h 2873
▁at 2866
▁He 2858
▁are 2845
▁st 2842
▁We 2784
▁as 2737
d 2732
▁re 2716
▁you 2692
v 2645
▁C 2612
▁his 2607
- 2564
▁were 2508
▁S 2496
▁had 2458
▁an 2456
▁will 2418
k 2372
▁by 2365
id 2326
▁B 2311
et 2309
as 2308
▁ 2240
ll 2221
▁P 2151
▁g 2145
se 2090
st 2090
▁this 2061
im 2060
ra 2047
ers 2015
il 2013
ir 2004
▁h 1982
ot 1943
ut 1926
▁been 1920
▁has 1907
▁M 1902
om 1890
th 1889
w 1878
▁de 1878
▁do 1874
▁F 1873
ri 1865
ation 1863
* 1860
▁from 1859
▁we 1848
▁* 1846
is 1824
▁D 1821
ce 1799
▁or 1752
▁no 1742
ad 1725
ve 1689
! 1682
▁me 1677
▁pro 1668
ate 1656
▁They 1640
▁e 1637
ro 1624
ion 1612
ol 1606
▁E 1570
ist 1568
▁one 1561
▁W 1539
▁they 1534
ld 1531
ch 1528
ment 1501
red 1497
▁se 1485
▁go 1465
est 1459
▁but 1454
▁v 1453
▁O 1443
▁about 1425
us 1415
▁r 1407
▁would 1402
ess 1401
▁which 1394
▁H 1392
te 1386
all 1385
ay 1385
ty 1380
▁This 1378
ive 1370
▁L 1370
▁very 1362
▁G 1360
▁n 1347
ction 1340
am 1339
▁There 1332
▁T 1331
ge 1328
▁N 1327
▁can 1327
and 1319
▁all 1313
▁R 1298
un 1295
ver 1292
▁so 1287
ter 1258
pe 1256
ct 1254
▁su 1253
one 1207
la 1206
▁That 1202
ant 1198
ide 1195
ow 1195
▁ex 1193
▁there 1184
▁him 1171
he 1161
our 1155
▁her 1144
ill 1108
end 1100
ue 1100
ure 1088
▁You 1076
▁out 1066
ies 1063
os 1058
ice 1054
▁time 1054
ally 1051
▁any 1042
▁o 1040
ine 1038
ou 1038
ved 1037
▁their 1020
▁just 1006
ha 1001
ity 990
um 983
ag 982
▁In 981
ard 971
▁le 959
▁other 950
▁two 948
x 943
▁too 939
▁th 935
qu 932
▁ar 932
ort 928
▁end 927
ry 925
▁them 924
▁sh 923
▁What 922
el 916
▁should 915
ul 912
▁Oswald 912
▁man 912
▁But 909
▁un 908
ound 903
▁like 901
▁am 899
▁cl 892
▁my 892
▁cha 888
▁could 884
pt 883
▁comp 876
▁said 873
▁ca 870
▁rainbow 869
▁J 866
ff 865
ast 863
▁work 856
▁up 854
per 840
ven 840
▁" 833
em 830
▁She 830
▁look 830
▁good 826
▁j 811
▁quote 811
▁who 808
▁also 805
▁con 803
ie 800
ned 798
▁did 796
ep 794
ng 792
ord 790
▁know 789
ious 788
▁k 782
▁pr 781
▁want 779
" 778
ance 773
▁she 761
ire 759
▁en 755
ions 753
ite 753
▁al 752
ary 749
▁get 745
ru 743
ress 740
art 739
if 738
ck 735
age 732
▁And 732
▁qu 730
ong 729
▁first 723
▁br 721
▁some 718
ab 716
ous 714
▁over 711
▁into 709
ough 703
ree 700
▁new 694
▁great 688
z 682
ak 679
ans 678
ig 677
ust 676
ict 669
ud 669
iv 666
▁ab 662
ind 661
ove 661
day 659
▁now 651
▁off 648
▁people 648
able 647
ome 646
▁rec 645
▁these 645
ated 644
ning 644
ition 643
▁right 643
ble 642
▁President 641
▁think 638
nt 637
▁ha 637
▁sc 637
▁pre 636
op 635
▁Mr 633
▁per 632
ight 631
j 628
res 627
▁act 625
reat 622
▁res 622
ond 620
ain 619
▁cons 619
▁So 617
▁more 617
ood 615
▁after 613
▁ag 611
ost 609
▁play 609
▁pl 605
▁prison 601
ced 599
ors 596
ass 594
; 591
een 591
▁dis 582
▁On 580
ons 579
> 578
▁made 578
▁sp 578
▁< 576
▁ref 575
▁its 573
▁when 573
▁Y 572
▁back 572
▁ro 570
▁fa 567
▁bl 566
▁des 566
ail 565
▁our 564
▁three 564
ach 562
ial 562
▁what 562
▁form 561
▁only 560
▁eight 559
▁under 558
▁long 555
pp 554
▁acc 554
▁tra 554
▁wor 553
ish 552
od 551
▁then 546
ull 545
▁St 543
▁comm 543
▁cou 543
▁part 541
ick 539
▁again 537
▁way 537
ther 535
ore 534
ack 532
▁cont 532
▁wh 531
her 528
▁im 528
ful 526
ory 524
▁going 521
ber 519
fe 518
pl 518
▁pos 517
▁still 517
▁never 512
▁your 509
▁y 504
▁five 502
▁K 499
▁ne 499
ac 497
ark 497
▁see 496
ence 495
▁need 494
▁take 491
▁twenty 490
▁ob 488
▁us 487
ult 486
og 485
port 485
▁got 482
cc 479
ile 479
▁Is 479
▁high 476
▁rain 476
ub 475
▁tr 470
▁u 470
ied 469
ign 469
ical 466
ke 466
▁come 466
▁ke 465
▁However 463
int 462
▁Th 458
▁New 457
▁car 457
▁tri 456
ise 455
▁Wh 455
▁att 452
▁last 449
▁found 447
▁home 447
▁ind 446
▁second 446
alk 445
ily 445
oy 443
ract 443
thing 443
▁four 443
▁ev 441
▁bet 440
▁red 440
▁conf 439
▁every 439
▁com 438
▁well 437
▁many 435
▁cr 431
ath 429
ew 429
▁em 429
av 427
▁say 427
▁ass 426
▁before 426
ci 420
ward 420
▁same 418
▁today 418
form 417
▁app 417
▁exp 413
▁may 413
ix 410
ces 408
ob 408
ple 408
▁co 408
▁wr 408
▁years 407
▁thir 405
▁Do 404
▁must 404
ame 403
row 403
ends 402
ose 400
▁No 399
▁fl 397
arly 396
itt 396
ook 396
urn 396
▁min 396
▁thought 394
▁does 393
▁sha 392
▁upon 391
▁spe 390
▁As 389
▁life 389
▁much 389
pect 388
▁ad 388
ined 387
oc 386
▁even 386
iz 384
▁really 383
out 381
▁make 381
man 379
ang 377
ince 376
li 376
▁don 376
▁Scotland 375
▁things 375
▁year 375
ens 373
▁six 373
nd 372
▁night 372
▁hand 371
▁might 370
laugh 368
other 368
▁cle 367
▁cour 367
▁gr 367
▁call 366
▁next 366
▁week 366
▁inv 365
als 364
ited 364
ren 364
▁cond 363
▁dec 363
▁if 363
▁imp 363
ock 362
▁than 362
▁Scottish 361
▁ra 361
▁down 360
▁li 360
ident 359
ouse 359
▁sm 359
▁supp 358
▁fin 356
oth 355
hing 354
▁show 354
▁If 353
ap 352
rops 352
▁pass 352
M 351
hi 351
▁game 351
ec 350
iew 350
▁When 350
▁belie 349
▁bow 347
cial 346
ures 345
▁His 345
▁big 344
cept 343
light 343
▁Mar 343
▁bo 343
▁sixty 343
▁through 343
ings 342
▁day 342
▁ret 342
ays 340
▁report 339
▁te 339
self 338
▁thing 338
▁fe 336
orm 335
ny 334
vel 334
▁U 333
▁police 333
▁set 333
hed 332
▁op 332
ase 331
ps 331
▁How 331
▁ch 331
ged 330
son 330
ving 330
▁decision 329
▁didn 329
ank 328
ild 328
▁ele 328
▁own 328
ations 325
na 325
▁ent 325
ote 324
▁ins 324
ody 323
be 322
▁offic 322
idence 321
▁bu 321
▁problem 321
aw 320
▁appe 319
any 317
ents 317
▁ho 317
▁pa 317
▁phys 317
rence 316
▁fri 316
▁little 316
▁most 316
▁add 314
get 313
me 313
ves 313
ates 312
up 312
▁My 312
▁bus 312
ime 311
▁war 311
ds 310
▁here 310
▁matter 310
cess 309
pos 309
▁fif 309
S 308
▁place 308
▁det 307
▁nineteen 307
▁sur 307
mber 306
si 306
▁Who 306
▁certain 306
▁came 305
▁low 305
▁str 305
ool 304
▁ac 304
▁light 304
▁feel 303
▁where 303
der 302
here 302
ener 301
▁lot 301
▁give 300
▁Un 299
▁case 299
ases 298
▁mon 298
▁hard 297
act 296
orrow 295
used 295
▁left 295
▁money 294
land 293
oun 293
rent 293
ne 292
▁dep 292
▁fam 292
ual 291
vernment 291
▁bec 291
▁gu 290
V 289
▁days 289
ale 288
▁sub 288
ake 287
▁being 287
▁result 287
▁sa 287
▁test 287
▁another 286
▁however 286
ize 285
▁person 285
▁follow 284
▁mo 284
▁point 284
ject 283
erm 281
▁fact 281
▁something 281
ather 280
ified 280
iss 280
les 280
ments 280
ness 279
▁To 279
▁public 278
▁different 277
▁ide 277
▁whole 277
ital 276
▁green 276
▁sun 276
ution 275
▁change 275
▁find 275
▁without 275
▁yellow 275
ount 274
▁che 274
▁int 274
▁win 274
ave 273
▁those 273
very 272
▁let 272
▁inter 271
▁such 271
pr 270
▁always 270
▁effect 270
▁far 270
esterday 269
hild 269
▁Secret 269
▁put 269
▁ext 268
▁happen 268
▁interest 268
▁taken 268
▁contin 267
▁job 267
ared 266
fic 265
ination 265
reet 264
▁pot 264
ife 263
ister 263
▁adv 263
▁help 263
▁number 263
▁seem 263
ished 262
▁beg 262
▁eas 262
▁incre 262
▁rem 262
ably 261
▁because 261
▁later 261
du 260
ell 260
ised 260
ither 260
▁iss 259
estion 258
iting 258
▁expected 258
▁Service 257
▁reg 257
▁Commission 256
▁Le 256
▁already 256
▁appro 256
▁away 256
▁concer 256
cri 255
▁main 255
oo 254
▁par 254
▁exper 253
▁hundred 253
▁team 253
enc 252
gate 252
▁These 252
▁fo 252
▁remain 252
wo 250
ght 248
ities 248
▁head 248
ired 247
▁used 247
▁ser 246
now 245
▁dif 245
▁rep 245
▁At 243
▁disc 243
▁saw 243
clud 242
ploy 241
und 241
ience 240
: 239
ased 238
▁love 237
I 234
au 234
B 232
ought 232
▁ri 231
ith 229
rom 228
▁diffe 227
tain 221
▁mat 220
▁happ 217
cl 214
ision 214
lic 213
lf 208
T 206
▁chan 201
eople 200
erv 198
han 196
▁aw 195
▁po 195
▁how 188
fter 187
gh 183
hen 182
▁tw 181
A 178
sw 175
C 174
▁ph 174
▁Se 165
ich 164
▁pol 163
ady 161
wn 161
own 160
ink 155
rest 154
▁Comm 148
ison 147
enty 145
omm 145
ffe 140
▁sec 138
fore 137
ys 137
ould 135
) 134
hat 134
so 133
( 132
ade 132
D 130
ater 130
P 128
R 128
W 127
▁tak 126
▁pla 125
rough 124
ever 122
ission 122
Q 119
igh 118
ft 110
cret 108
nder 108
O 107
ervice 106
▁pers 106
vern 105
K 104
▁expect 104
▁num 104
ald 96
irst 91
xt 88
ause 86
H 82
▁ap 82
L 81
▁ye 78
ect 77
Z 75
cre 72
llow 72
▁ninet 63
lie 62
E 61
uch 61
▁pub 60
cer 54
▁somet 54
N 52
omet 52
▁Sc 51
ffect 50
ertain 49
reen 49
inet 48
ester 44
resident 43
G 41
rd 41
F 39
’ 39
▁Scot 39
▁inte 37
oney 35
Y 34
U 33
ittle 33
ek 31
J 30
q 30
X 24
ready 24
ways 22
▁hel 21
lau 17
ü 15
á 13
ú 12
▁Scott 9
í 7
́ 7
[ 5
] 5
bow 5
undred 5
“ 5
” 5
— 4
eop 3
< 2
é 2
/ 1
` 1
blem 1
swald 1
à 1
â 1
ê 1
